#include "drone_detect_model_data.h"

// Converted model data is stored in custom_model_48x48_gray_tflite array.

unsigned char custom_model_48x48_gray_tflite[] = {
  0x1c, 0x00, 0x00, 0x00, 0x54, 0x46, 0x4c, 0x33, 0x00, 0x00, 0x12, 0x00,
  0x1c, 0x00, 0x04, 0x00, 0x08, 0x00, 0x0c, 0x00, 0x10, 0x00, 0x14, 0x00,
  0x00, 0x00, 0x18, 0x00, 0x12, 0x00, 0x00, 0x00, 0x03, 0x00, 0x00, 0x00,
  0x14, 0x00, 0x00, 0x00, 0x2c, 0x00, 0x00, 0x00, 0xdc, 0x00, 0x00, 0x00,
  0x2c, 0x00, 0x00, 0x00, 0x84, 0x00, 0x00, 0x00, 0x06, 0x00, 0x00, 0x00,
  0xc0, 0x06, 0x00, 0x00, 0xec, 0x04, 0x00, 0x00, 0x38, 0x04, 0x00, 0x00,
  0x90, 0x03, 0x00, 0x00, 0xd4, 0x02, 0x00, 0x00, 0x30, 0x02, 0x00, 0x00,
  0x01, 0x00, 0x00, 0x00, 0xd4, 0x00, 0x00, 0x00, 0x16, 0x00, 0x00, 0x00,
  0x90, 0x14, 0x00, 0x00, 0x8c, 0x14, 0x00, 0x00, 0xc8, 0x13, 0x00, 0x00,
  0x50, 0x13, 0x00, 0x00, 0xe8, 0x12, 0x00, 0x00, 0x74, 0x12, 0x00, 0x00,
  0x04, 0x12, 0x00, 0x00, 0x8c, 0x11, 0x00, 0x00, 0x14, 0x11, 0x00, 0x00,
  0xbc, 0x0d, 0x00, 0x00, 0x54, 0x0d, 0x00, 0x00, 0x2c, 0x0c, 0x00, 0x00,
  0x34, 0x07, 0x00, 0x00, 0x5c, 0x14, 0x00, 0x00, 0x58, 0x14, 0x00, 0x00,
  0x54, 0x14, 0x00, 0x00, 0x50, 0x14, 0x00, 0x00, 0x4c, 0x14, 0x00, 0x00,
  0x48, 0x14, 0x00, 0x00, 0x44, 0x14, 0x00, 0x00, 0x40, 0x14, 0x00, 0x00,
  0x38, 0x00, 0x00, 0x00, 0x01, 0x00, 0x00, 0x00, 0x0c, 0x00, 0x00, 0x00,
  0x08, 0x00, 0x0c, 0x00, 0x04, 0x00, 0x08, 0x00, 0x08, 0x00, 0x00, 0x00,
  0x08, 0x00, 0x00, 0x00, 0x15, 0x00, 0x00, 0x00, 0x13, 0x00, 0x00, 0x00,
  0x6d, 0x69, 0x6e, 0x5f, 0x72, 0x75, 0x6e, 0x74, 0x69, 0x6d, 0x65, 0x5f,
  0x76, 0x65, 0x72, 0x73, 0x69, 0x6f, 0x6e, 0x00, 0xc2, 0xec, 0xff, 0xff,
  0x04, 0x00, 0x00, 0x00, 0x10, 0x00, 0x00, 0x00, 0x31, 0x2e, 0x35, 0x2e,
  0x30, 0x00, 0x00, 0x00, 0x00, 0x00, 0x00, 0x00, 0x00, 0x00, 0x00, 0x00,
  0x0f, 0x00, 0x00, 0x00, 0x4d, 0x4c, 0x49, 0x52, 0x20, 0x43, 0x6f, 0x6e,
  0x76, 0x65, 0x72, 0x74, 0x65, 0x64, 0x2e, 0x00, 0x00, 0x00, 0x0e, 0x00,
  0x18, 0x00, 0x04, 0x00, 0x08, 0x00, 0x0c, 0x00, 0x10, 0x00, 0x14, 0x00,
  0x0e, 0x00, 0x00, 0x00, 0x14, 0x00, 0x00, 0x00, 0x64, 0x00, 0x00, 0x00,
  0x68, 0x00, 0x00, 0x00, 0x6c, 0x00, 0x00, 0x00, 0x8c, 0x00, 0x00, 0x00,
  0x14, 0x00, 0x00, 0x00, 0x64, 0x13, 0x00, 0x00, 0xf8, 0x12, 0x00, 0x00,
  0x84, 0x12, 0x00, 0x00, 0x14, 0x12, 0x00, 0x00, 0xac, 0x11, 0x00, 0x00,
  0x44, 0x11, 0x00, 0x00, 0xc0, 0x10, 0x00, 0x00, 0x48, 0x10, 0x00, 0x00,
  0xe4, 0x0f, 0x00, 0x00, 0x8c, 0x0c, 0x00, 0x00, 0x1c, 0x0c, 0x00, 0x00,
  0xf4, 0x0a, 0x00, 0x00, 0x90, 0x05, 0x00, 0x00, 0x60, 0x04, 0x00, 0x00,
  0xb8, 0x03, 0x00, 0x00, 0x00, 0x03, 0x00, 0x00, 0x5c, 0x02, 0x00, 0x00,
  0xa0, 0x01, 0x00, 0x00, 0xfc, 0x00, 0x00, 0x00, 0x78, 0x00, 0x00, 0x00,
  0x01, 0x00, 0x00, 0x00, 0x00, 0x00, 0x00, 0x00, 0x01, 0x00, 0x00, 0x00,
  0x13, 0x00, 0x00, 0x00, 0x08, 0x00, 0x00, 0x00, 0xfc, 0x04, 0x00, 0x00,
  0xf0, 0x03, 0x00, 0x00, 0x48, 0x03, 0x00, 0x00, 0x88, 0x02, 0x00, 0x00,
  0xcc, 0x01, 0x00, 0x00, 0x3c, 0x01, 0x00, 0x00, 0x7c, 0x00, 0x00, 0x00,
  0x10, 0x00, 0x00, 0x00, 0x04, 0x00, 0x00, 0x00, 0x6d, 0x61, 0x69, 0x6e,
  0x00, 0x00, 0x00, 0x00, 0xea, 0xfc, 0xff, 0xff, 0x00, 0x00, 0x00, 0x08,
  0x05, 0x00, 0x00, 0x00, 0x18, 0x00, 0x00, 0x00, 0x0c, 0x00, 0x00, 0x00,
  0x04, 0x00, 0x00, 0x00, 0x04, 0xed, 0xff, 0xff, 0x01, 0x00, 0x00, 0x00,
  0x13, 0x00, 0x00, 0x00, 0x03, 0x00, 0x00, 0x00, 0x12, 0x00, 0x00, 0x00,
  0x09, 0x00, 0x00, 0x00, 0x04, 0x00, 0x00, 0x00, 0x6e, 0xed, 0xff, 0xff,
  0x10, 0x00, 0x00, 0x00, 0x14, 0x00, 0x00, 0x00, 0x14, 0x00, 0x00, 0x00,
  0x20, 0x00, 0x00, 0x00, 0x02, 0x00, 0x00, 0x00, 0x01, 0x00, 0x00, 0x00,
  0x04, 0x00, 0x00, 0x00, 0x08, 0x00, 0x00, 0x00, 0x49, 0x64, 0x65, 0x6e,
  0x74, 0x69, 0x74, 0x79, 0x00, 0x00, 0x00, 0x00, 0x50, 0xed, 0xff, 0xff,
  0xc6, 0xfe, 0xff, 0xff, 0x00, 0x00, 0x00, 0x08, 0x05, 0x00, 0x00, 0x00,
  0x24, 0x00, 0x00, 0x00, 0x18, 0x00, 0x00, 0x00, 0x0c, 0x00, 0x00, 0x00,
  0x00, 0x00, 0x06, 0x00, 0x08, 0x00, 0x07, 0x00, 0x06, 0x00, 0x00, 0x00,
  0x00, 0x00, 0x00, 0x01, 0x01, 0x00, 0x00, 0x00, 0x12, 0x00, 0x00, 0x00,
  0x03, 0x00, 0x00, 0x00, 0x11, 0x00, 0x00, 0x00, 0x08, 0x00, 0x00, 0x00,
  0x03, 0x00, 0x00, 0x00, 0x8e, 0xfb, 0xff, 0xff, 0x00, 0x00, 0x00, 0x09,
  0x01, 0x00, 0x00, 0x00, 0xee, 0xed, 0xff, 0xff, 0x10, 0x00, 0x00, 0x00,
  0x13, 0x00, 0x00, 0x00, 0x14, 0x00, 0x00, 0x00, 0x50, 0x00, 0x00, 0x00,
  0x02, 0x00, 0x00, 0x00, 0x01, 0x00, 0x00, 0x00, 0x01, 0x00, 0x00, 0x00,
  0x3a, 0x00, 0x00, 0x00, 0x73, 0x65, 0x71, 0x75, 0x65, 0x6e, 0x74, 0x69,
  0x61, 0x6c, 0x5f, 0x31, 0x39, 0x2f, 0x64, 0x65, 0x6e, 0x73, 0x65, 0x5f,
  0x33, 0x38, 0x2f, 0x52, 0x65, 0x6c, 0x75, 0x3b, 0x73, 0x65, 0x71, 0x75,
  0x65, 0x6e, 0x74, 0x69, 0x61, 0x6c, 0x5f, 0x31, 0x39, 0x2f, 0x64, 0x65,
  0x6e, 0x73, 0x65, 0x5f, 0x33, 0x38, 0x2f, 0x42, 0x69, 0x61, 0x73, 0x41,
  0x64, 0x64, 0x00, 0x00, 0x58, 0xee, 0xff, 0xff, 0x00, 0x00, 0x0a, 0x00,
  0x10, 0x00, 0x04, 0x00, 0x08, 0x00, 0x0c, 0x00, 0x0a, 0x00, 0x00, 0x00,
  0x04, 0x00, 0x00, 0x00, 0x10, 0x00, 0x00, 0x00, 0x04, 0x00, 0x00, 0x00,
  0x01, 0x00, 0x00, 0x00, 0x11, 0x00, 0x00, 0x00, 0x02, 0x00, 0x00, 0x00,
  0x10, 0x00, 0x00, 0x00, 0x05, 0x00, 0x00, 0x00, 0x2e, 0xfc, 0xff, 0xff,
  0x00, 0x00, 0x00, 0x16, 0x01, 0x00, 0x00, 0x00, 0x8e, 0xee, 0xff, 0xff,
  0x10, 0x00, 0x00, 0x00, 0x12, 0x00, 0x00, 0x00, 0x14, 0x00, 0x00, 0x00,
  0x38, 0x00, 0x00, 0x00, 0x02, 0x00, 0x00, 0x00, 0x01, 0x00, 0x00, 0x00,
  0xc0, 0x00, 0x00, 0x00, 0x20, 0x00, 0x00, 0x00, 0x73, 0x65, 0x71, 0x75,
  0x65, 0x6e, 0x74, 0x69, 0x61, 0x6c, 0x5f, 0x31, 0x39, 0x2f, 0x66, 0x6c,
  0x61, 0x74, 0x74, 0x65, 0x6e, 0x5f, 0x31, 0x39, 0x2f, 0x52, 0x65, 0x73,
  0x68, 0x61, 0x70, 0x65, 0x00, 0x00, 0x00, 0x00, 0xe0, 0xee, 0xff, 0xff,
  0x00, 0x00, 0x0e, 0x00, 0x1a, 0x00, 0x08, 0x00, 0x0c, 0x00, 0x10, 0x00,
  0x07, 0x00, 0x14, 0x00, 0x0e, 0x00, 0x00, 0x00, 0x00, 0x00, 0x00, 0x05,
  0x03, 0x00, 0x00, 0x00, 0x3c, 0x00, 0x00, 0x00, 0x30, 0x00, 0x00, 0x00,
  0x14, 0x00, 0x00, 0x00, 0x00, 0x00, 0x0e, 0x00, 0x18, 0x00, 0x0f, 0x00,
  0x04, 0x00, 0x08, 0x00, 0x10, 0x00, 0x14, 0x00, 0x0e, 0x00, 0x00, 0x00,
  0x06, 0x00, 0x00, 0x00, 0x06, 0x00, 0x00, 0x00, 0x00, 0x00, 0x00, 0x01,
  0x06, 0x00, 0x00, 0x00, 0x06, 0x00, 0x00, 0x00, 0x01, 0x00, 0x00, 0x00,
  0x10, 0x00, 0x00, 0x00, 0x01, 0x00, 0x00, 0x00, 0x0f, 0x00, 0x00, 0x00,
  0xe6, 0xfc, 0xff, 0xff, 0x00, 0x00, 0x00, 0x01, 0x01, 0x00, 0x00, 0x00,
  0x46, 0xef, 0xff, 0xff, 0x10, 0x00, 0x00, 0x00, 0x11, 0x00, 0x00, 0x00,
  0x1c, 0x00, 0x00, 0x00, 0x48, 0x00, 0x00, 0x00, 0x04, 0x00, 0x00, 0x00,
  0x01, 0x00, 0x00, 0x00, 0x08, 0x00, 0x00, 0x00, 0x08, 0x00, 0x00, 0x00,
  0x03, 0x00, 0x00, 0x00, 0x2a, 0x00, 0x00, 0x00, 0x73, 0x65, 0x71, 0x75,
  0x65, 0x6e, 0x74, 0x69, 0x61, 0x6c, 0x5f, 0x31, 0x39, 0x2f, 0x61, 0x76,
  0x65, 0x72, 0x61, 0x67, 0x65, 0x5f, 0x70, 0x6f, 0x6f, 0x6c, 0x69, 0x6e,
  0x67, 0x32, 0x64, 0x5f, 0x31, 0x37, 0x2f, 0x41, 0x76, 0x67, 0x50, 0x6f,
  0x6f, 0x6c, 0x00, 0x00, 0x50, 0xef, 0xff, 0xff, 0x52, 0xff, 0xff, 0xff,
  0x00, 0x00, 0x00, 0x0b, 0x02, 0x00, 0x00, 0x00, 0x18, 0x00, 0x00, 0x00,
  0x0c, 0x00, 0x00, 0x00, 0x04, 0x00, 0x00, 0x00, 0x6c, 0xef, 0xff, 0xff,
  0x01, 0x00, 0x00, 0x00, 0x0f, 0x00, 0x00, 0x00, 0x02, 0x00, 0x00, 0x00,
  0x0e, 0x00, 0x00, 0x00, 0x07, 0x00, 0x00, 0x00, 0x00, 0x00, 0x0a, 0x00,
  0x08, 0x00, 0x00, 0x00, 0x00, 0x00, 0x04, 0x00, 0x0a, 0x00, 0x00, 0x00,
  0x01, 0x00, 0x00, 0x00, 0xe6, 0xef, 0xff, 0xff, 0x10, 0x00, 0x00, 0x00,
  0x10, 0x00, 0x00, 0x00, 0x1c, 0x00, 0x00, 0x00, 0x54, 0x00, 0x00, 0x00,
  0x04, 0x00, 0x00, 0x00, 0x01, 0x00, 0x00, 0x00, 0x30, 0x00, 0x00, 0x00,
  0x30, 0x00, 0x00, 0x00, 0x03, 0x00, 0x00, 0x00, 0x36, 0x00, 0x00, 0x00,
  0x73, 0x65, 0x71, 0x75, 0x65, 0x6e, 0x74, 0x69, 0x61, 0x6c, 0x5f, 0x31,
  0x39, 0x2f, 0x62, 0x61, 0x74, 0x63, 0x68, 0x5f, 0x6e, 0x6f, 0x72, 0x6d,
  0x61, 0x6c, 0x69, 0x7a, 0x61, 0x74, 0x69, 0x6f, 0x6e, 0x5f, 0x31, 0x37,
  0x2f, 0x46, 0x75, 0x73, 0x65, 0x64, 0x42, 0x61, 0x74, 0x63, 0x68, 0x4e,
  0x6f, 0x72, 0x6d, 0x56, 0x33, 0x33, 0x00, 0x00, 0x54, 0xf0, 0xff, 0xff,
  0x00, 0x00, 0x0e, 0x00, 0x18, 0x00, 0x08, 0x00, 0x0c, 0x00, 0x10, 0x00,
  0x07, 0x00, 0x14, 0x00, 0x0e, 0x00, 0x00, 0x00, 0x00, 0x00, 0x00, 0x15,
  0x01, 0x00, 0x00, 0x00, 0x18, 0x00, 0x00, 0x00, 0x0c, 0x00, 0x00, 0x00,
  0x04, 0x00, 0x00, 0x00, 0x28, 0xf0, 0xff, 0xff, 0x01, 0x00, 0x00, 0x00,
  0x0e, 0x00, 0x00, 0x00, 0x02, 0x00, 0x00, 0x00, 0x0d, 0x00, 0x00, 0x00,
  0x06, 0x00, 0x00, 0x00, 0x3a, 0xfe, 0xff, 0xff, 0x00, 0x00, 0x00, 0x12,
  0x01, 0x00, 0x00, 0x00, 0x9a, 0xf0, 0xff, 0xff, 0x10, 0x00, 0x00, 0x00,
  0x0f, 0x00, 0x00, 0x00, 0x1c, 0x00, 0x00, 0x00, 0x54, 0x00, 0x00, 0x00,
  0x04, 0x00, 0x00, 0x00, 0x01, 0x00, 0x00, 0x00, 0x30, 0x00, 0x00, 0x00,
  0x30, 0x00, 0x00, 0x00, 0x03, 0x00, 0x00, 0x00, 0x36, 0x00, 0x00, 0x00,
  0x73, 0x65, 0x71, 0x75, 0x65, 0x6e, 0x74, 0x69, 0x61, 0x6c, 0x5f, 0x31,
  0x39, 0x2f, 0x62, 0x61, 0x74, 0x63, 0x68, 0x5f, 0x6e, 0x6f, 0x72, 0x6d,
  0x61, 0x6c, 0x69, 0x7a, 0x61, 0x74, 0x69, 0x6f, 0x6e, 0x5f, 0x31, 0x37,
  0x2f, 0x46, 0x75, 0x73, 0x65, 0x64, 0x42, 0x61, 0x74, 0x63, 0x68, 0x4e,
  0x6f, 0x72, 0x6d, 0x56, 0x33, 0x32, 0x00, 0x00, 0xb0, 0xf0, 0xff, 0xff,
  0x06, 0xff, 0xff, 0xff, 0x00, 0x00, 0x00, 0x01, 0x24, 0x00, 0x00, 0x00,
  0x18, 0x00, 0x00, 0x00, 0x04, 0x00, 0x00, 0x00, 0xf8, 0xfe, 0xff, 0xff,
  0x01, 0x00, 0x00, 0x00, 0x01, 0x00, 0x00, 0x00, 0x00, 0x00, 0x00, 0x01,
  0x01, 0x00, 0x00, 0x00, 0x0d, 0x00, 0x00, 0x00, 0x03, 0x00, 0x00, 0x00,
  0x0c, 0x00, 0x00, 0x00, 0x0b, 0x00, 0x00, 0x00, 0x02, 0x00, 0x00, 0x00,
  0x3e, 0xf1, 0xff, 0xff, 0x10, 0x00, 0x00, 0x00, 0x0e, 0x00, 0x00, 0x00,
  0x1c, 0x00, 0x00, 0x00, 0xa8, 0x00, 0x00, 0x00, 0x04, 0x00, 0x00, 0x00,
  0x01, 0x00, 0x00, 0x00, 0x30, 0x00, 0x00, 0x00, 0x30, 0x00, 0x00, 0x00,
  0x03, 0x00, 0x00, 0x00, 0x8a, 0x00, 0x00, 0x00, 0x73, 0x65, 0x71, 0x75,
  0x65, 0x6e, 0x74, 0x69, 0x61, 0x6c, 0x5f, 0x31, 0x39, 0x2f, 0x63, 0x6f,
  0x6e, 0x76, 0x32, 0x64, 0x5f, 0x33, 0x35, 0x2f, 0x52, 0x65, 0x6c, 0x75,
  0x3b, 0x73, 0x65, 0x71, 0x75, 0x65, 0x6e, 0x74, 0x69, 0x61, 0x6c, 0x5f,
  0x31, 0x39, 0x2f, 0x63, 0x6f, 0x6e, 0x76, 0x32, 0x64, 0x5f, 0x33, 0x35,
  0x2f, 0x42, 0x69, 0x61, 0x73, 0x41, 0x64, 0x64, 0x3b, 0x73, 0x65, 0x71,
  0x75, 0x65, 0x6e, 0x74, 0x69, 0x61, 0x6c, 0x5f, 0x31, 0x39, 0x2f, 0x63,
  0x6f, 0x6e, 0x76, 0x32, 0x64, 0x5f, 0x33, 0x35, 0x2f, 0x43, 0x6f, 0x6e,
  0x76, 0x32, 0x44, 0x3b, 0x73, 0x65, 0x71, 0x75, 0x65, 0x6e, 0x74, 0x69,
  0x61, 0x6c, 0x5f, 0x31, 0x39, 0x2f, 0x63, 0x6f, 0x6e, 0x76, 0x32, 0x64,
  0x5f, 0x33, 0x35, 0x2f, 0x42, 0x69, 0x61, 0x73, 0x41, 0x64, 0x64, 0x2f,
  0x52, 0x65, 0x61, 0x64, 0x56, 0x61, 0x72, 0x69, 0x61, 0x62, 0x6c, 0x65,
  0x4f, 0x70, 0x00, 0x00, 0x00, 0xf2, 0xff, 0xff, 0x00, 0x00, 0x0e, 0x00,
  0x14, 0x00, 0x00, 0x00, 0x08, 0x00, 0x0c, 0x00, 0x07, 0x00, 0x10, 0x00,
  0x0e, 0x00, 0x00, 0x00, 0x00, 0x00, 0x00, 0x01, 0x30, 0x00, 0x00, 0x00,
  0x24, 0x00, 0x00, 0x00, 0x10, 0x00, 0x00, 0x00, 0x0c, 0x00, 0x10, 0x00,
  0x00, 0x00, 0x04, 0x00, 0x08, 0x00, 0x0f, 0x00, 0x0c, 0x00, 0x00, 0x00,
  0x01, 0x00, 0x00, 0x00, 0x01, 0x00, 0x00, 0x00, 0x00, 0x00, 0x00, 0x01,
  0x01, 0x00, 0x00, 0x00, 0x0c, 0x00, 0x00, 0x00, 0x03, 0x00, 0x00, 0x00,
  0x00, 0x00, 0x00, 0x00, 0x0a, 0x00, 0x00, 0x00, 0x01, 0x00, 0x00, 0x00,
  0x00, 0x00, 0x0a, 0x00, 0x0c, 0x00, 0x07, 0x00, 0x00, 0x00, 0x08, 0x00,
  0x0a, 0x00, 0x00, 0x00, 0x00, 0x00, 0x00, 0x03, 0x01, 0x00, 0x00, 0x00,
  0x6a, 0xf2, 0xff, 0xff, 0x10, 0x00, 0x00, 0x00, 0x0d, 0x00, 0x00, 0x00,
  0x1c, 0x00, 0x00, 0x00, 0xa8, 0x00, 0x00, 0x00, 0x04, 0x00, 0x00, 0x00,
  0x01, 0x00, 0x00, 0x00, 0x30, 0x00, 0x00, 0x00, 0x30, 0x00, 0x00, 0x00,
  0x02, 0x00, 0x00, 0x00, 0x8a, 0x00, 0x00, 0x00, 0x73, 0x65, 0x71, 0x75,
  0x65, 0x6e, 0x74, 0x69, 0x61, 0x6c, 0x5f, 0x31, 0x39, 0x2f, 0x63, 0x6f,
  0x6e, 0x76, 0x32, 0x64, 0x5f, 0x33, 0x34, 0x2f, 0x52, 0x65, 0x6c, 0x75,
  0x3b, 0x73, 0x65, 0x71, 0x75, 0x65, 0x6e, 0x74, 0x69, 0x61, 0x6c, 0x5f,
  0x31, 0x39, 0x2f, 0x63, 0x6f, 0x6e, 0x76, 0x32, 0x64, 0x5f, 0x33, 0x34,
  0x2f, 0x42, 0x69, 0x61, 0x73, 0x41, 0x64, 0x64, 0x3b, 0x73, 0x65, 0x71,
  0x75, 0x65, 0x6e, 0x74, 0x69, 0x61, 0x6c, 0x5f, 0x31, 0x39, 0x2f, 0x63,
  0x6f, 0x6e, 0x76, 0x32, 0x64, 0x5f, 0x33, 0x34, 0x2f, 0x43, 0x6f, 0x6e,
  0x76, 0x32, 0x44, 0x3b, 0x73, 0x65, 0x71, 0x75, 0x65, 0x6e, 0x74, 0x69,
  0x61, 0x6c, 0x5f, 0x31, 0x39, 0x2f, 0x63, 0x6f, 0x6e, 0x76, 0x32, 0x64,
  0x5f, 0x33, 0x34, 0x2f, 0x42, 0x69, 0x61, 0x73, 0x41, 0x64, 0x64, 0x2f,
  0x52, 0x65, 0x61, 0x64, 0x56, 0x61, 0x72, 0x69, 0x61, 0x62, 0x6c, 0x65,
  0x4f, 0x70, 0x00, 0x00, 0xd4, 0xf2, 0xff, 0xff, 0x9a, 0xf3, 0xff, 0xff,
  0x04, 0x00, 0x00, 0x00, 0x98, 0x04, 0x00, 0x00, 0x53, 0x72, 0x80, 0xbd,
  0x36, 0xd3, 0xac, 0xbe, 0xa1, 0xd4, 0xa4, 0x3b, 0x59, 0x11, 0xcb, 0x3d,
  0x3a, 0x36, 0x26, 0x3d, 0x1b, 0x2b, 0xdd, 0xbe, 0xb7, 0xfe, 0x01, 0x3f,
  0x72, 0xf6, 0x03, 0xbf, 0x1c, 0xd0, 0x93, 0xbd, 0xb3, 0xd1, 0x30, 0xbe,
  0x65, 0x99, 0x3e, 0x3e, 0x74, 0xe8, 0x71, 0xbe, 0x03, 0xf0, 0x53, 0xbe,
  0x09, 0x4d, 0xae, 0xbe, 0x5b, 0xe6, 0x1b, 0xbf, 0x53, 0x04, 0x10, 0xbf,
  0x3b, 0x89, 0xe8, 0x3e, 0x60, 0x9d, 0x60, 0xbe, 0xc7, 0xbc, 0xef, 0xbe,
  0x6b, 0xb1, 0xe1, 0xbe, 0x20, 0x80, 0xfd, 0x3e, 0x06, 0xef, 0xc0, 0x3d,
  0xc0, 0xd4, 0x24, 0xbf, 0x90, 0x27, 0x06, 0xbf, 0x19, 0xe1, 0xa5, 0xbe,
  0x5d, 0x3d, 0x80, 0xbe, 0xa4, 0x8c, 0x0d, 0xbf, 0xfc, 0x15, 0xe3, 0xbe,
  0x51, 0x89, 0x95, 0xbe, 0x6e, 0x27, 0x2b, 0x3d, 0xb9, 0x77, 0x91, 0xbe,
  0xdd, 0x27, 0x42, 0xbf, 0x3c, 0xca, 0x09, 0x3f, 0x23, 0xd2, 0xb5, 0x3e,
  0xe8, 0x3f, 0xca, 0x3d, 0x8f, 0xf1, 0x07, 0xbf, 0xdc, 0xeb, 0x71, 0xbe,
  0x53, 0x96, 0x76, 0x3e, 0x45, 0xa5, 0x26, 0xbe, 0xb7, 0xfe, 0x4c, 0x3e,
  0x60, 0xd3, 0x66, 0xbe, 0x4f, 0x98, 0xda, 0x3e, 0x74, 0x94, 0xee, 0xbe,
  0xad, 0x4d, 0xfb, 0x3e, 0x14, 0xb2, 0xdb, 0x3e, 0xef, 0xfd, 0xbc, 0xbe,
  0xc2, 0x73, 0xc3, 0xbe, 0x36, 0x37, 0xdf, 0xbe, 0xa0, 0x77, 0x10, 0xbe,
  0x75, 0x72, 0xa8, 0xbe, 0x58, 0x26, 0xb0, 0xbe, 0x2d, 0xf7, 0x28, 0x3e,
  0x1b, 0xa1, 0x72, 0xbe, 0xef, 0x16, 0xcf, 0xbe, 0xe0, 0x71, 0x5c, 0xbe,
  0xa2, 0x85, 0xe9, 0xbe, 0xfc, 0xe4, 0x96, 0xbe, 0x77, 0xb7, 0x02, 0xbf,
  0x32, 0xc7, 0x8b, 0x3e, 0x26, 0xe1, 0x2f, 0xbe, 0x46, 0x5e, 0xe9, 0x3e,
  0xa7, 0xe5, 0xd5, 0xbe, 0xf2, 0x5e, 0xcc, 0x3e, 0xa7, 0xea, 0xf3, 0xbe,
  0x94, 0xa9, 0x22, 0xbe, 0xad, 0x8b, 0xb2, 0xbe, 0xb1, 0x07, 0xb0, 0xbe,
  0x92, 0xb8, 0xc9, 0xbe, 0x55, 0xed, 0x12, 0xbf, 0xed, 0xd3, 0x1e, 0xbe,
  0xb3, 0x30, 0xc7, 0xbe, 0xf9, 0x6c, 0x58, 0xbe, 0xd0, 0x59, 0x06, 0x3f,
  0xf5, 0x94, 0x90, 0x3e, 0x34, 0x8e, 0x05, 0xbe, 0xa4, 0xe0, 0xab, 0xbe,
  0x0c, 0x75, 0xe7, 0x3e, 0x67, 0x55, 0xa8, 0x3e, 0x59, 0xa1, 0xf1, 0xbe,
  0x37, 0x74, 0x14, 0xbf, 0xbf, 0x22, 0x00, 0xbf, 0x34, 0x92, 0x0c, 0x3f,
  0xbb, 0x42, 0x98, 0xbe, 0x3a, 0x85, 0xdd, 0xbe, 0x4c, 0xe2, 0x94, 0xbe,
  0x0b, 0x3f, 0x16, 0xbe, 0xb9, 0x8f, 0xd8, 0xbe, 0x73, 0x5c, 0xb2, 0xbe,
  0xab, 0x8e, 0xb0, 0x3e, 0x01, 0x45, 0x00, 0x3e, 0x49, 0xd7, 0xa4, 0x3e,
  0xcf, 0xdd, 0x35, 0x3c, 0x27, 0x92, 0xcb, 0xbe, 0x88, 0xea, 0xc7, 0x3e,
  0xc8, 0xb9, 0x23, 0xbf, 0x7d, 0xb7, 0xf0, 0xbe, 0x20, 0x1f, 0xbd, 0xbe,
  0xd9, 0x00, 0x96, 0x3e, 0xcf, 0x94, 0x3b, 0x3c, 0x8a, 0xb6, 0x6c, 0xbd,
  0x76, 0x66, 0xd0, 0xbb, 0xe3, 0x1a, 0x18, 0xbf, 0x22, 0xa5, 0x28, 0x3c,
  0xf5, 0x31, 0x65, 0xbe, 0x51, 0xf5, 0x30, 0xbe, 0xd8, 0xfb, 0x1f, 0xbe,
  0x21, 0x35, 0xc5, 0x3d, 0x99, 0xd8, 0x0f, 0xbe, 0xd2, 0x8c, 0x04, 0x3f,
  0xd5, 0xfc, 0xd1, 0xbe, 0x36, 0x11, 0x9f, 0xbc, 0xc5, 0xb9, 0x47, 0xbe,
  0xf8, 0xf1, 0xb1, 0x3c, 0xac, 0x99, 0x91, 0xbe, 0x3e, 0x0a, 0xe6, 0xbe,
  0xea, 0xc8, 0x06, 0xbf, 0xc6, 0x7e, 0x19, 0xbf, 0xe9, 0xcb, 0x17, 0xbe,
  0xeb, 0x5a, 0x33, 0xbf, 0x93, 0x10, 0x5b, 0xbe, 0x73, 0x27, 0x44, 0xbf,
  0xe3, 0xb5, 0xf9, 0xbe, 0xf7, 0x83, 0x3c, 0xbf, 0xcd, 0x80, 0xe0, 0x3c,
  0x08, 0xe5, 0x2f, 0xbf, 0xf6, 0xff, 0x3c, 0xbe, 0x2b, 0x36, 0xc9, 0xbb,
  0xf9, 0x7f, 0x88, 0x3e, 0xb4, 0x00, 0x1d, 0x3e, 0xd1, 0x32, 0xaf, 0xbe,
  0xc6, 0xe0, 0x18, 0xbe, 0x90, 0xba, 0xd8, 0xbd, 0x7f, 0x4f, 0x5d, 0x3e,
  0x9b, 0x89, 0x6f, 0xbe, 0xc4, 0x09, 0xd4, 0x3e, 0x57, 0x3d, 0x79, 0x3e,
  0x90, 0xc1, 0x5b, 0x3a, 0xaf, 0xd9, 0x70, 0xbe, 0xa4, 0x43, 0x34, 0xbc,
  0x29, 0x1e, 0x12, 0xbf, 0xaa, 0x6c, 0x5d, 0x3f, 0x57, 0x26, 0x20, 0x3d,
  0x1f, 0xac, 0xbd, 0xbe, 0xc7, 0x15, 0xb7, 0x3d, 0x0f, 0x73, 0x2a, 0x3d,
  0x50, 0x79, 0x3c, 0xbf, 0x9d, 0x9f, 0x19, 0x3e, 0x29, 0xa8, 0xf9, 0xbe,
  0x22, 0x0f, 0x2b, 0xbe, 0x7e, 0x5d, 0x0e, 0x3f, 0xa7, 0x9f, 0xfa, 0xbb,
  0xbc, 0x86, 0xda, 0x3e, 0xa0, 0xb2, 0x8c, 0x3e, 0x95, 0x4a, 0x6b, 0x3e,
  0x5f, 0x95, 0x39, 0xbd, 0x2e, 0x7f, 0x2a, 0xbf, 0x88, 0x55, 0xf7, 0xbe,
  0x0a, 0xa6, 0x78, 0x3d, 0xbd, 0x76, 0x39, 0xbf, 0xa7, 0x30, 0xed, 0x3d,
  0x8c, 0x5a, 0x0d, 0xbf, 0x5b, 0xd9, 0xd4, 0x3e, 0x58, 0x9e, 0xaa, 0xbe,
  0x4e, 0x55, 0x00, 0xbf, 0x1c, 0x40, 0x71, 0xbe, 0x75, 0xca, 0x40, 0xbf,
  0x01, 0x13, 0xc6, 0xbe, 0x59, 0x7d, 0x26, 0xbf, 0x34, 0x3c, 0xff, 0x3e,
  0x29, 0xc5, 0x46, 0xbe, 0xad, 0x92, 0x1f, 0xbe, 0x15, 0xa5, 0xfa, 0xbe,
  0xb3, 0xc3, 0x80, 0xbe, 0xc9, 0x23, 0xbd, 0x3e, 0x26, 0xd7, 0x10, 0xbe,
  0x64, 0x85, 0x22, 0xbf, 0x55, 0xfc, 0x93, 0xbe, 0x01, 0x72, 0xab, 0xbe,
  0x0c, 0xfc, 0xb2, 0xbe, 0x5e, 0xf5, 0x63, 0x3d, 0x20, 0xb8, 0x26, 0xbe,
  0x97, 0x17, 0x88, 0x3e, 0x65, 0x4e, 0xd5, 0x3c, 0xc0, 0x03, 0x1a, 0xbf,
  0x4e, 0xbf, 0x1d, 0xbf, 0x31, 0x83, 0x16, 0xbd, 0x8e, 0x25, 0x2c, 0xbe,
  0x1f, 0xc4, 0xf2, 0xbe, 0x41, 0x6e, 0x95, 0xbe, 0x49, 0xe9, 0x7d, 0x3e,
  0x29, 0xdd, 0xc8, 0xbd, 0xbc, 0x7e, 0xd1, 0x3d, 0x60, 0x24, 0xdf, 0xbd,
  0xd6, 0x58, 0x1c, 0x3e, 0xa1, 0x6c, 0x06, 0xbf, 0xe9, 0xae, 0x71, 0x3e,
  0xff, 0x26, 0x2b, 0xbf, 0xbf, 0x68, 0x91, 0xbe, 0xac, 0x69, 0x39, 0x3f,
  0x9c, 0xeb, 0x3a, 0xbd, 0xc8, 0x67, 0xef, 0x3d, 0x4c, 0x23, 0xc9, 0xbe,
  0x14, 0xc2, 0x7a, 0x3e, 0x94, 0x21, 0x00, 0xbe, 0x02, 0xe9, 0xae, 0xbe,
  0x71, 0x5b, 0xf7, 0xbe, 0xed, 0x4e, 0x1a, 0xbb, 0xdb, 0xe9, 0x8f, 0xbe,
  0x07, 0x6a, 0x0b, 0xbf, 0xdd, 0xc3, 0xb6, 0xbd, 0x94, 0x00, 0x8b, 0xbe,
  0x5b, 0x1f, 0x00, 0xbf, 0x41, 0x90, 0xe4, 0x3d, 0xf2, 0xf4, 0x3e, 0x3e,
  0xaf, 0x88, 0xdd, 0x3e, 0x0f, 0xc4, 0xa9, 0xbe, 0x1e, 0xe5, 0x78, 0xbc,
  0xc1, 0xb2, 0x5a, 0xbe, 0xcd, 0xf7, 0x9c, 0x3e, 0x25, 0x14, 0x3f, 0xbf,
  0x62, 0xc7, 0xdc, 0xbe, 0xab, 0x8b, 0x18, 0xbe, 0x3a, 0xfa, 0xb2, 0x3e,
  0x1a, 0xf5, 0xc9, 0xbe, 0x2b, 0xab, 0xff, 0xbe, 0x3c, 0x44, 0x18, 0xbe,
  0xb5, 0xa2, 0xa7, 0xbe, 0xb2, 0xce, 0xe7, 0x3e, 0x5d, 0xd9, 0x6a, 0xbc,
  0xc9, 0xca, 0x09, 0xbf, 0xd7, 0xa6, 0x8f, 0xbe, 0x85, 0x7f, 0xa6, 0xbe,
  0x7a, 0xf1, 0x68, 0xbe, 0x4d, 0x16, 0x87, 0x3e, 0x35, 0xce, 0xfc, 0xbe,
  0xb5, 0xb9, 0xa0, 0xbe, 0xe7, 0x94, 0xf9, 0xbe, 0xf1, 0xee, 0xaf, 0xbe,
  0xf6, 0x8b, 0xa6, 0xbc, 0x88, 0x82, 0x17, 0xbf, 0x9a, 0x86, 0x99, 0x3e,
  0xe7, 0xdf, 0xb5, 0xbe, 0x30, 0x84, 0xba, 0x3e, 0xee, 0xfc, 0xe3, 0x3d,
  0x15, 0xc7, 0x47, 0x3c, 0x6e, 0x7d, 0xd8, 0x3e, 0xf1, 0xeb, 0x56, 0x3e,
  0x09, 0x2a, 0x76, 0x3e, 0x22, 0x86, 0xfa, 0x3d, 0x0d, 0xfd, 0x84, 0x3e,
  0x52, 0x66, 0x09, 0xbd, 0xe0, 0xe1, 0xb7, 0x3e, 0x79, 0x58, 0x9a, 0xbe,
  0xd3, 0xa8, 0x79, 0xbe, 0x3a, 0xf0, 0xba, 0xbd, 0x5d, 0x50, 0x83, 0xbe,
  0xf0, 0x5f, 0x9c, 0xbe, 0xe0, 0xbb, 0xef, 0x3c, 0xab, 0x16, 0x01, 0x3f,
  0x08, 0x0e, 0x33, 0xbf, 0xc0, 0xab, 0xc3, 0xbe, 0x10, 0x44, 0xca, 0xbd,
  0xfd, 0x41, 0x01, 0xbf, 0x2c, 0x1b, 0xab, 0x3e, 0x68, 0xd5, 0x49, 0x3d,
  0xfa, 0xd7, 0xfc, 0xbe, 0x3c, 0x7f, 0x8a, 0xbe, 0x58, 0x9f, 0xa2, 0xbe,
  0xf1, 0x4b, 0xe6, 0x3e, 0xf5, 0x6c, 0xdd, 0xbe, 0xe3, 0xd0, 0x00, 0xbf,
  0xf7, 0x51, 0xaf, 0x3e, 0x1c, 0x80, 0xac, 0x3e, 0xbf, 0xdd, 0x98, 0x3e,
  0x0f, 0x80, 0xf4, 0xbe, 0xb5, 0xa2, 0xbe, 0x3c, 0x55, 0xa7, 0xcf, 0xbe,
  0x48, 0xb7, 0x2a, 0xbf, 0xe1, 0x18, 0x0f, 0xbf, 0x93, 0x93, 0xfb, 0xbe,
  0xe9, 0x09, 0x83, 0xbe, 0xf2, 0xec, 0xbc, 0xbe, 0x5a, 0x9f, 0x70, 0xbe,
  0xc3, 0xa2, 0x1d, 0xbf, 0x11, 0xc1, 0x10, 0x3f, 0xff, 0xcb, 0x0f, 0xbf,
  0x88, 0xc6, 0x33, 0x3f, 0x1f, 0x01, 0x8d, 0xbe, 0x5c, 0xae, 0x10, 0xbf,
  0x3d, 0x2d, 0x89, 0x3e, 0x95, 0xb8, 0xbc, 0xbe, 0x1b, 0x0b, 0xd7, 0xbe,
  0x24, 0x21, 0x2a, 0xbe, 0x64, 0x2d, 0xa5, 0xbe, 0xca, 0xf7, 0xff, 0xff,
  0x10, 0x00, 0x00, 0x00, 0x0c, 0x00, 0x00, 0x00, 0x1c, 0x00, 0x00, 0x00,
  0x3c, 0x00, 0x00, 0x00, 0x04, 0x00, 0x00, 0x00, 0x03, 0x00, 0x00, 0x00,
  0x07, 0x00, 0x00, 0x00, 0x07, 0x00, 0x00, 0x00, 0x02, 0x00, 0x00, 0x00,
  0x1e, 0x00, 0x00, 0x00, 0x73, 0x65, 0x71, 0x75, 0x65, 0x6e, 0x74, 0x69,
  0x61, 0x6c, 0x5f, 0x31, 0x39, 0x2f, 0x63, 0x6f, 0x6e, 0x76, 0x32, 0x64,
  0x5f, 0x33, 0x35, 0x2f, 0x43, 0x6f, 0x6e, 0x76, 0x32, 0x44, 0x00, 0x00,
  0xc8, 0xf7, 0xff, 0xff, 0x8e, 0xf8, 0xff, 0xff, 0x04, 0x00, 0x00, 0x00,
  0xc8, 0x00, 0x00, 0x00, 0x53, 0x39, 0x38, 0xbf, 0xa2, 0xed, 0xa8, 0xbe,
  0x8f, 0xe0, 0x3c, 0x3f, 0xd0, 0x5b, 0x13, 0xbf, 0x61, 0x0d, 0x02, 0xbf,
  0x15, 0x7a, 0x0f, 0xbf, 0xc2, 0x1b, 0xf3, 0xbe, 0x43, 0x3a, 0x85, 0x3e,
  0x88, 0xf9, 0x84, 0x3e, 0x98, 0xc6, 0x15, 0xbf, 0x13, 0x31, 0x31, 0xbd,
  0x04, 0xed, 0xae, 0x3e, 0x21, 0xe0, 0x68, 0x3d, 0x3c, 0x14, 0xd0, 0x3c,
  0xd7, 0xf0, 0x40, 0xbe, 0x74, 0xc7, 0x3d, 0xbe, 0x5c, 0xa5, 0x3c, 0xbf,
  0x86, 0xce, 0x15, 0x3f, 0x51, 0x81, 0xf2, 0xbe, 0x7f, 0x7d, 0xee, 0x3e,
  0x7a, 0xe2, 0xb9, 0xbe, 0x89, 0xda, 0x9d, 0xbd, 0x23, 0x87, 0x52, 0xbe,
  0x05, 0x06, 0x1d, 0x3f, 0x53, 0x67, 0xc4, 0x3e, 0x48, 0x89, 0x6d, 0x3e,
  0x19, 0xf8, 0x20, 0xbf, 0xa5, 0x40, 0xc1, 0xbe, 0xf6, 0x33, 0xcc, 0x3e,
  0x8e, 0x43, 0xbf, 0xbe, 0xdb, 0x75, 0x06, 0xbf, 0x21, 0x5a, 0xf8, 0x3e,
  0x4d, 0x82, 0x0a, 0x3f, 0xa1, 0x09, 0x59, 0x3f, 0xd7, 0xc8, 0x3a, 0xbf,
  0xcb, 0xf9, 0x77, 0xbe, 0x37, 0x14, 0xac, 0xbe, 0x08, 0x05, 0x39, 0xbf,
  0x12, 0xb0, 0x96, 0x3e, 0xcf, 0x82, 0xfa, 0xbe, 0xc2, 0xd6, 0x07, 0x3f,
  0xc7, 0x06, 0x92, 0x3e, 0x18, 0xb8, 0x08, 0x3e, 0x3e, 0xd9, 0xe0, 0x3c,
  0xee, 0x08, 0x98, 0x3e, 0x30, 0x16, 0x13, 0xbf, 0xdf, 0x35, 0xd6, 0xbe,
  0x26, 0xb4, 0x20, 0xbe, 0x11, 0xfe, 0x3e, 0xbe, 0x71, 0xe1, 0xbb, 0xbc,
  0xee, 0xf8, 0xff, 0xff, 0x10, 0x00, 0x00, 0x00, 0x0b, 0x00, 0x00, 0x00,
  0x1c, 0x00, 0x00, 0x00, 0x3c, 0x00, 0x00, 0x00, 0x04, 0x00, 0x00, 0x00,
  0x02, 0x00, 0x00, 0x00, 0x05, 0x00, 0x00, 0x00, 0x05, 0x00, 0x00, 0x00,
  0x01, 0x00, 0x00, 0x00, 0x1e, 0x00, 0x00, 0x00, 0x73, 0x65, 0x71, 0x75,
  0x65, 0x6e, 0x74, 0x69, 0x61, 0x6c, 0x5f, 0x31, 0x39, 0x2f, 0x63, 0x6f,
  0x6e, 0x76, 0x32, 0x64, 0x5f, 0x33, 0x34, 0x2f, 0x43, 0x6f, 0x6e, 0x76,
  0x32, 0x44, 0x00, 0x00, 0xec, 0xf8, 0xff, 0xff, 0xb2, 0xf9, 0xff, 0xff,
  0x04, 0x00, 0x00, 0x00, 0x10, 0x00, 0x00, 0x00, 0xdc, 0x40, 0x01, 0x3e,
  0x58, 0x5e, 0x26, 0x3e, 0x24, 0x32, 0x22, 0x3f, 0x07, 0xd3, 0x02, 0x3f,
  0x5a, 0xf9, 0xff, 0xff, 0x10, 0x00, 0x00, 0x00, 0x0a, 0x00, 0x00, 0x00,
  0x14, 0x00, 0x00, 0x00, 0x34, 0x00, 0x00, 0x00, 0x02, 0x00, 0x00, 0x00,
  0x04, 0x00, 0x00, 0x00, 0x01, 0x00, 0x00, 0x00, 0x1d, 0x00, 0x00, 0x00,
  0x73, 0x65, 0x71, 0x75, 0x65, 0x6e, 0x74, 0x69, 0x61, 0x6c, 0x5f, 0x31,
  0x39, 0x2f, 0x64, 0x65, 0x6e, 0x73, 0x65, 0x5f, 0x33, 0x39, 0x2f, 0x4d,
  0x61, 0x74, 0x4d, 0x75, 0x6c, 0x00, 0x00, 0x00, 0x50, 0xf9, 0xff, 0xff,
  0x16, 0xfa, 0xff, 0xff, 0x04, 0x00, 0x00, 0x00, 0x00, 0x03, 0x00, 0x00,
  0x92, 0x23, 0x41, 0xbd, 0x98, 0x32, 0xc2, 0x3d, 0x0f, 0x54, 0x0f, 0x3e,
  0x1d, 0xda, 0xf9, 0xbe, 0x1c, 0x51, 0x59, 0xbe, 0xa0, 0xc0, 0xec, 0xbe,
  0x92, 0xbe, 0xd1, 0xbe, 0x13, 0x25, 0x19, 0xbe, 0x89, 0x75, 0x01, 0xbf,
  0x6a, 0xf3, 0xbf, 0xbe, 0x03, 0x19, 0x92, 0xbd, 0x9f, 0x39, 0xa4, 0xbe,
  0x2c, 0x46, 0xf0, 0xbe, 0xf2, 0x55, 0xad, 0xbd, 0x19, 0xe9, 0xc3, 0xbe,
  0x43, 0x9d, 0x17, 0xbf, 0x32, 0x26, 0xf8, 0xbc, 0x96, 0x96, 0xba, 0xbe,
  0x0d, 0xbe, 0xbf, 0xbe, 0x12, 0x56, 0x98, 0xbd, 0xa1, 0xc6, 0x9d, 0xbe,
  0xeb, 0x0f, 0x13, 0xbf, 0x2e, 0x95, 0x1b, 0xbf, 0xc2, 0xb0, 0x03, 0xbf,
  0x95, 0x6e, 0x91, 0x3d, 0x1f, 0x1b, 0xaa, 0xbd, 0x9e, 0xf3, 0xef, 0x3d,
  0x59, 0x31, 0xb8, 0xbe, 0xc2, 0x70, 0x01, 0xbf, 0x2d, 0x65, 0xb2, 0xbe,
  0xd0, 0x1c, 0xb0, 0xbe, 0xf9, 0x1b, 0x00, 0xbf, 0x90, 0xf3, 0x01, 0xbf,
  0xa9, 0xdf, 0xd4, 0xbe, 0xd4, 0x1b, 0x1a, 0xbf, 0xc4, 0xfb, 0x73, 0xbe,
  0xbf, 0xa0, 0x89, 0xbe, 0x4c, 0x9c, 0xc6, 0xbe, 0x3e, 0xc2, 0xf6, 0xbe,
  0x20, 0xf3, 0xe7, 0xbe, 0xd4, 0x57, 0xae, 0xbe, 0x29, 0x6a, 0x0d, 0xbf,
  0x9e, 0xfe, 0xfa, 0xbe, 0xb7, 0x5b, 0xb7, 0xbe, 0x9e, 0x0f, 0x08, 0xbf,
  0x3a, 0xc3, 0x0c, 0xbf, 0xba, 0x30, 0xc9, 0xbe, 0xc7, 0xc3, 0xae, 0xbe,
  0x30, 0xaa, 0x0f, 0x3e, 0xeb, 0x58, 0xb3, 0x3d, 0xa1, 0x8c, 0x24, 0x3e,
  0x9b, 0x9b, 0xf6, 0xbe, 0x9b, 0x8e, 0x84, 0xbe, 0xe9, 0x9c, 0x01, 0xbf,
  0xe8, 0xb0, 0xfe, 0xbe, 0x46, 0xdf, 0xf6, 0xbe, 0x8c, 0xf9, 0xa7, 0xbe,
  0xd5, 0xd4, 0x7e, 0xbe, 0xa0, 0x32, 0xfa, 0xbe, 0xd0, 0x95, 0xf0, 0xbe,
  0x52, 0xe5, 0xcc, 0xbe, 0x46, 0x9a, 0x00, 0xbf, 0x2c, 0x43, 0xdd, 0xbe,
  0xcb, 0x4e, 0xba, 0xbe, 0x78, 0x1c, 0x04, 0xbf, 0xa0, 0x2f, 0xea, 0xbe,
  0x8d, 0x09, 0xf5, 0xbe, 0x30, 0xdd, 0xf3, 0xbe, 0x30, 0x60, 0xda, 0xbe,
  0x63, 0xcd, 0xe9, 0xbe, 0xe8, 0x0b, 0x8c, 0xbe, 0xf9, 0xef, 0xc3, 0xbe,
  0xbd, 0x55, 0x10, 0x3c, 0x42, 0xf8, 0xa5, 0x3d, 0x81, 0x42, 0x4d, 0x3d,
  0xcb, 0x61, 0x6c, 0xbe, 0xa7, 0x35, 0xd5, 0xbe, 0x8d, 0x14, 0xb0, 0xbe,
  0x77, 0xaa, 0x0b, 0xbf, 0xbe, 0xab, 0x96, 0xbe, 0x29, 0xae, 0xfd, 0xbe,
  0x22, 0xe2, 0xd0, 0xbe, 0x5e, 0xdd, 0xf7, 0xbe, 0x1e, 0x24, 0xec, 0xbe,
  0x50, 0xea, 0x9e, 0xbe, 0x07, 0xfe, 0xbc, 0xbe, 0x20, 0xaf, 0xdf, 0xbe,
  0xc2, 0xab, 0xc9, 0xbe, 0x8b, 0x9f, 0xda, 0xbe, 0x88, 0xdb, 0x96, 0xbe,
  0x41, 0x99, 0xd1, 0xbe, 0x39, 0x24, 0x89, 0xbe, 0x95, 0xbb, 0xff, 0xbe,
  0xf9, 0x91, 0xcb, 0xbe, 0x9c, 0xf1, 0xc9, 0xbe, 0x66, 0xec, 0x0a, 0xbf,
  0x67, 0xd6, 0x72, 0x3c, 0xe4, 0x11, 0x99, 0x3c, 0x2c, 0xce, 0x1b, 0x3e,
  0x59, 0x99, 0x82, 0xbe, 0x53, 0xb7, 0x0d, 0xbf, 0xfa, 0x0d, 0xd6, 0xbe,
  0x21, 0xb3, 0xe7, 0xbe, 0xd6, 0x4c, 0x86, 0xbe, 0x6e, 0xe1, 0x91, 0xbe,
  0x6d, 0x29, 0xcf, 0xbe, 0x3f, 0x94, 0xf6, 0xbe, 0x61, 0x7c, 0xac, 0xbe,
  0xad, 0xf9, 0x99, 0xbe, 0xf3, 0xde, 0x9b, 0xbe, 0x03, 0xc0, 0xac, 0xbe,
  0x1d, 0xaa, 0x69, 0xbe, 0x34, 0x87, 0xc8, 0xbe, 0x30, 0xbd, 0x0d, 0xbf,
  0x76, 0xb2, 0x07, 0xbf, 0x94, 0xb9, 0xf7, 0xbe, 0xfe, 0xf8, 0x03, 0xbf,
  0x91, 0xbb, 0xe3, 0xbe, 0x62, 0xed, 0xcf, 0xbe, 0x1b, 0xeb, 0xc2, 0xbe,
  0x7a, 0x4b, 0xfe, 0x3d, 0x96, 0x04, 0x65, 0xbc, 0xd4, 0x8c, 0x15, 0x3e,
  0x72, 0xa4, 0x0c, 0xbf, 0xb8, 0x53, 0x0b, 0xbf, 0x23, 0xb2, 0xcf, 0xbe,
  0x2b, 0x81, 0xb8, 0xbe, 0xca, 0x17, 0xa4, 0xbe, 0x39, 0xbe, 0x12, 0xbf,
  0x09, 0x5f, 0xa4, 0xbe, 0x87, 0x01, 0xcc, 0xbe, 0xf3, 0x5e, 0xf2, 0xbe,
  0x99, 0x47, 0xd1, 0xbe, 0xc2, 0xba, 0xb4, 0xbe, 0x2c, 0x6f, 0xea, 0xbe,
  0xaf, 0xf8, 0xde, 0xbe, 0x7f, 0xca, 0xed, 0xbe, 0x38, 0x1a, 0xe1, 0xbe,
  0xff, 0xa8, 0xfd, 0xbe, 0x39, 0x79, 0xa5, 0xbe, 0xca, 0x0f, 0xed, 0xbe,
  0x39, 0x69, 0x8e, 0xbe, 0x64, 0xe4, 0x02, 0xbf, 0x29, 0x47, 0xc8, 0xbe,
  0xd2, 0xb8, 0x48, 0x3e, 0x79, 0x51, 0x68, 0xbd, 0x6c, 0xa8, 0x54, 0x3d,
  0xbf, 0x7d, 0xef, 0xbe, 0xea, 0x19, 0xc9, 0xbe, 0xd9, 0x35, 0xe9, 0xbe,
  0x76, 0x50, 0x08, 0xbf, 0x51, 0x96, 0xfe, 0xbe, 0x27, 0xed, 0x0c, 0xbf,
  0xd0, 0xec, 0xa9, 0xbe, 0x4e, 0xec, 0x04, 0xbf, 0x67, 0x0a, 0xd1, 0xbe,
  0x73, 0x06, 0x8d, 0xbe, 0x9e, 0x17, 0x0d, 0xbf, 0xa9, 0x2f, 0x8c, 0xbe,
  0x54, 0x96, 0x8d, 0xbe, 0xec, 0x0b, 0xfb, 0xbe, 0x3b, 0xa9, 0xd3, 0xbe,
  0x8c, 0x92, 0x01, 0xbf, 0xa7, 0x21, 0xa7, 0xbe, 0x1e, 0x3a, 0x14, 0xbf,
  0xac, 0xda, 0x8c, 0xbe, 0xe0, 0x47, 0xd3, 0xbe, 0x01, 0x82, 0xd3, 0xbe,
  0x85, 0x96, 0x31, 0xbe, 0xe4, 0x12, 0x91, 0xbe, 0x63, 0x20, 0xef, 0x3c,
  0x79, 0x90, 0x05, 0xbf, 0x03, 0xb5, 0xc7, 0xbe, 0x0f, 0x56, 0x16, 0xbf,
  0xc8, 0x79, 0xfc, 0xbe, 0x94, 0x6c, 0xff, 0xbe, 0xb7, 0x57, 0xc7, 0xbe,
  0x3b, 0x06, 0x06, 0xbf, 0x91, 0x43, 0xf5, 0xbe, 0x7c, 0x51, 0xdb, 0xbe,
  0x2c, 0x5d, 0xa0, 0xbe, 0xe3, 0x1a, 0xce, 0xbe, 0x8e, 0x4f, 0xcb, 0xbe,
  0xa8, 0x81, 0x9f, 0xbe, 0xf8, 0xac, 0x0b, 0xbf, 0x4b, 0x1d, 0xde, 0xbe,
  0xa6, 0x3f, 0xa8, 0xbe, 0x6f, 0xf2, 0xec, 0xbe, 0x7c, 0x91, 0x94, 0xbe,
  0x2a, 0x9a, 0x07, 0xbf, 0xda, 0x40, 0xe7, 0xbe, 0xdf, 0x68, 0xe6, 0xbe,
  0xae, 0xfc, 0xff, 0xff, 0x10, 0x00, 0x00, 0x00, 0x09, 0x00, 0x00, 0x00,
  0x14, 0x00, 0x00, 0x00, 0x34, 0x00, 0x00, 0x00, 0x02, 0x00, 0x00, 0x00,
  0x01, 0x00, 0x00, 0x00, 0xc0, 0x00, 0x00, 0x00, 0x1d, 0x00, 0x00, 0x00,
  0x73, 0x65, 0x71, 0x75, 0x65, 0x6e, 0x74, 0x69, 0x61, 0x6c, 0x5f, 0x31,
  0x39, 0x2f, 0x64, 0x65, 0x6e, 0x73, 0x65, 0x5f, 0x33, 0x38, 0x2f, 0x4d,
  0x61, 0x74, 0x4d, 0x75, 0x6c, 0x00, 0x00, 0x00, 0xa4, 0xfc, 0xff, 0xff,
  0x6a, 0xfd, 0xff, 0xff, 0x04, 0x00, 0x00, 0x00, 0x0c, 0x00, 0x00, 0x00,
  0xc2, 0xf6, 0x4d, 0xbf, 0xec, 0x35, 0x43, 0xbf, 0xec, 0x94, 0x52, 0xbf,
  0x0e, 0xfd, 0xff, 0xff, 0x10, 0x00, 0x00, 0x00, 0x08, 0x00, 0x00, 0x00,
  0x10, 0x00, 0x00, 0x00, 0x48, 0x00, 0x00, 0x00, 0x01, 0x00, 0x00, 0x00,
  0x03, 0x00, 0x00, 0x00, 0x36, 0x00, 0x00, 0x00, 0x73, 0x65, 0x71, 0x75,
  0x65, 0x6e, 0x74, 0x69, 0x61, 0x6c, 0x5f, 0x31, 0x39, 0x2f, 0x62, 0x61,
  0x74, 0x63, 0x68, 0x5f, 0x6e, 0x6f, 0x72, 0x6d, 0x61, 0x6c, 0x69, 0x7a,
  0x61, 0x74, 0x69, 0x6f, 0x6e, 0x5f, 0x31, 0x37, 0x2f, 0x46, 0x75, 0x73,
  0x65, 0x64, 0x42, 0x61, 0x74, 0x63, 0x68, 0x4e, 0x6f, 0x72, 0x6d, 0x56,
  0x33, 0x31, 0x00, 0x00, 0x18, 0xfd, 0xff, 0xff, 0xde, 0xfd, 0xff, 0xff,
  0x04, 0x00, 0x00, 0x00, 0x0c, 0x00, 0x00, 0x00, 0x5c, 0xa2, 0xd7, 0x3c,
  0x24, 0x93, 0x37, 0x3d, 0xa1, 0xec, 0x03, 0x3d, 0x82, 0xfd, 0xff, 0xff,
  0x10, 0x00, 0x00, 0x00, 0x07, 0x00, 0x00, 0x00, 0x10, 0x00, 0x00, 0x00,
  0x48, 0x00, 0x00, 0x00, 0x01, 0x00, 0x00, 0x00, 0x03, 0x00, 0x00, 0x00,
  0x35, 0x00, 0x00, 0x00, 0x73, 0x65, 0x71, 0x75, 0x65, 0x6e, 0x74, 0x69,
  0x61, 0x6c, 0x5f, 0x31, 0x39, 0x2f, 0x62, 0x61, 0x74, 0x63, 0x68, 0x5f,
  0x6e, 0x6f, 0x72, 0x6d, 0x61, 0x6c, 0x69, 0x7a, 0x61, 0x74, 0x69, 0x6f,
  0x6e, 0x5f, 0x31, 0x37, 0x2f, 0x46, 0x75, 0x73, 0x65, 0x64, 0x42, 0x61,
  0x74, 0x63, 0x68, 0x4e, 0x6f, 0x72, 0x6d, 0x56, 0x33, 0x00, 0x00, 0x00,
  0x8c, 0xfd, 0xff, 0xff, 0x52, 0xfe, 0xff, 0xff, 0x04, 0x00, 0x00, 0x00,
  0x08, 0x00, 0x00, 0x00, 0xff, 0xff, 0xff, 0xff, 0xc0, 0x00, 0x00, 0x00,
  0x00, 0x00, 0x0e, 0x00, 0x18, 0x00, 0x08, 0x00, 0x07, 0x00, 0x0c, 0x00,
  0x10, 0x00, 0x14, 0x00, 0x0e, 0x00, 0x00, 0x00, 0x00, 0x00, 0x00, 0x02,
  0x10, 0x00, 0x00, 0x00, 0x06, 0x00, 0x00, 0x00, 0x10, 0x00, 0x00, 0x00,
  0x30, 0x00, 0x00, 0x00, 0x01, 0x00, 0x00, 0x00, 0x02, 0x00, 0x00, 0x00,
  0x1e, 0x00, 0x00, 0x00, 0x73, 0x65, 0x71, 0x75, 0x65, 0x6e, 0x74, 0x69,
  0x61, 0x6c, 0x5f, 0x31, 0x39, 0x2f, 0x66, 0x6c, 0x61, 0x74, 0x74, 0x65,
  0x6e, 0x5f, 0x31, 0x39, 0x2f, 0x43, 0x6f, 0x6e, 0x73, 0x74, 0x00, 0x00,
  0xf8, 0xfd, 0xff, 0xff, 0xbe, 0xfe, 0xff, 0xff, 0x04, 0x00, 0x00, 0x00,
  0x10, 0x00, 0x00, 0x00, 0x6b, 0xb7, 0x7f, 0x3f, 0x15, 0x40, 0xb9, 0x3a,
  0x9e, 0x31, 0x9f, 0x3f, 0x5b, 0x55, 0xaa, 0x3f, 0x66, 0xfe, 0xff, 0xff,
  0x10, 0x00, 0x00, 0x00, 0x05, 0x00, 0x00, 0x00, 0x10, 0x00, 0x00, 0x00,
  0x40, 0x00, 0x00, 0x00, 0x01, 0x00, 0x00, 0x00, 0x04, 0x00, 0x00, 0x00,
  0x2d, 0x00, 0x00, 0x00, 0x73, 0x65, 0x71, 0x75, 0x65, 0x6e, 0x74, 0x69,
  0x61, 0x6c, 0x5f, 0x31, 0x39, 0x2f, 0x64, 0x65, 0x6e, 0x73, 0x65, 0x5f,
  0x33, 0x39, 0x2f, 0x42, 0x69, 0x61, 0x73, 0x41, 0x64, 0x64, 0x2f, 0x52,
  0x65, 0x61, 0x64, 0x56, 0x61, 0x72, 0x69, 0x61, 0x62, 0x6c, 0x65, 0x4f,
  0x70, 0x00, 0x00, 0x00, 0x68, 0xfe, 0xff, 0xff, 0x2e, 0xff, 0xff, 0xff,
  0x04, 0x00, 0x00, 0x00, 0x04, 0x00, 0x00, 0x00, 0x8f, 0xdd, 0xc3, 0x3e,
  0xca, 0xfe, 0xff, 0xff, 0x10, 0x00, 0x00, 0x00, 0x04, 0x00, 0x00, 0x00,
  0x10, 0x00, 0x00, 0x00, 0x40, 0x00, 0x00, 0x00, 0x01, 0x00, 0x00, 0x00,
  0x01, 0x00, 0x00, 0x00, 0x2d, 0x00, 0x00, 0x00, 0x73, 0x65, 0x71, 0x75,
  0x65, 0x6e, 0x74, 0x69, 0x61, 0x6c, 0x5f, 0x31, 0x39, 0x2f, 0x64, 0x65,
  0x6e, 0x73, 0x65, 0x5f, 0x33, 0x38, 0x2f, 0x42, 0x69, 0x61, 0x73, 0x41,
  0x64, 0x64, 0x2f, 0x52, 0x65, 0x61, 0x64, 0x56, 0x61, 0x72, 0x69, 0x61,
  0x62, 0x6c, 0x65, 0x4f, 0x70, 0x00, 0x00, 0x00, 0xcc, 0xfe, 0xff, 0xff,
  0x92, 0xff, 0xff, 0xff, 0x04, 0x00, 0x00, 0x00, 0x0c, 0x00, 0x00, 0x00,
  0xf0, 0x69, 0x45, 0xbf, 0xf4, 0xa6, 0x19, 0xbf, 0x2c, 0x0e, 0x1a, 0xbf,
  0x36, 0xff, 0xff, 0xff, 0x10, 0x00, 0x00, 0x00, 0x03, 0x00, 0x00, 0x00,
  0x10, 0x00, 0x00, 0x00, 0x40, 0x00, 0x00, 0x00, 0x01, 0x00, 0x00, 0x00,
  0x03, 0x00, 0x00, 0x00, 0x2e, 0x00, 0x00, 0x00, 0x73, 0x65, 0x71, 0x75,
  0x65, 0x6e, 0x74, 0x69, 0x61, 0x6c, 0x5f, 0x31, 0x39, 0x2f, 0x63, 0x6f,
  0x6e, 0x76, 0x32, 0x64, 0x5f, 0x33, 0x35, 0x2f, 0x42, 0x69, 0x61, 0x73,
  0x41, 0x64, 0x64, 0x2f, 0x52, 0x65, 0x61, 0x64, 0x56, 0x61, 0x72, 0x69,
  0x61, 0x62, 0x6c, 0x65, 0x4f, 0x70, 0x00, 0x00, 0x90, 0xff, 0xff, 0xff,
  0x00, 0x00, 0x06, 0x00, 0x08, 0x00, 0x04, 0x00, 0x06, 0x00, 0x00, 0x00,
  0x04, 0x00, 0x00, 0x00, 0x08, 0x00, 0x00, 0x00, 0x1d, 0x61, 0xbe, 0x3e,
  0x8f, 0x25, 0xd8, 0x3d, 0xa6, 0xff, 0xff, 0xff, 0x10, 0x00, 0x00, 0x00,
  0x02, 0x00, 0x00, 0x00, 0x10, 0x00, 0x00, 0x00, 0x44, 0x00, 0x00, 0x00,
  0x01, 0x00, 0x00, 0x00, 0x02, 0x00, 0x00, 0x00, 0x2e, 0x00, 0x00, 0x00,
  0x73, 0x65, 0x71, 0x75, 0x65, 0x6e, 0x74, 0x69, 0x61, 0x6c, 0x5f, 0x31,
  0x39, 0x2f, 0x63, 0x6f, 0x6e, 0x76, 0x32, 0x64, 0x5f, 0x33, 0x34, 0x2f,
  0x42, 0x69, 0x61, 0x73, 0x41, 0x64, 0x64, 0x2f, 0x52, 0x65, 0x61, 0x64,
  0x56, 0x61, 0x72, 0x69, 0x61, 0x62, 0x6c, 0x65, 0x4f, 0x70, 0x00, 0x00,
  0x04, 0x00, 0x06, 0x00, 0x04, 0x00, 0x00, 0x00, 0x00, 0x00, 0x0e, 0x00,
  0x14, 0x00, 0x04, 0x00, 0x00, 0x00, 0x08, 0x00, 0x0c, 0x00, 0x10, 0x00,
  0x0e, 0x00, 0x00, 0x00, 0x10, 0x00, 0x00, 0x00, 0x01, 0x00, 0x00, 0x00,
  0x1c, 0x00, 0x00, 0x00, 0x2c, 0x00, 0x00, 0x00, 0x04, 0x00, 0x00, 0x00,
  0x01, 0x00, 0x00, 0x00, 0x30, 0x00, 0x00, 0x00, 0x30, 0x00, 0x00, 0x00,
  0x01, 0x00, 0x00, 0x00, 0x0f, 0x00, 0x00, 0x00, 0x63, 0x6f, 0x6e, 0x76,
  0x32, 0x64, 0x5f, 0x33, 0x34, 0x5f, 0x69, 0x6e, 0x70, 0x75, 0x74, 0x00,
  0xfc, 0xff, 0xff, 0xff, 0x04, 0x00, 0x04, 0x00, 0x04, 0x00, 0x00, 0x00
};
unsigned int custom_model_48x48_gray_tflite_len = 5364;
